TRT-8502-EntropyCalibration2
images: 3c010a14
input: 3da5d88d
onnx::Conv_122: 3cf475d7
input.4: 3ddd7c63
onnx::Conv_124: 3d0296e5
input.8: 3dcfce08
input.12: 3de60e94
onnx::Concat_126: 3d23a617
onnx::Conv_128: 3cde8885
input.16: 3d982362
onnx::Conv_130: 3d39286a
input.20: 3d9e5008
onnx::Concat_132: 3d45cc21
input.24: 3d394d93
input.28: 3df65288
onnx::MaxPool_135: 3d3e7ebe
input.32: 3d3e7ebe
input.36: 3d76762e
input.40: 3d51bdf9
onnx::Concat_138: 3d06629d
onnx::Conv_140: 3d0e1838
input.44: 3d671156
onnx::Conv_142: 3d2572d0
input.48: 3d825cd2
onnx::Concat_144: 3d2c4cd1
input.52: 3d2c7052
input.56: 3d81c04c
onnx::MaxPool_147: 3d192f74
input.60: 3d192f74
input.180: 3d49ab50
input.64: 3d6337d8
input.68: 3d2ac2eb
onnx::Concat_214: 3d089381
onnx::Concat_150: 3ce3666a
onnx::Conv_152: 3cd49039
input.72: 3d3a3f10
onnx::Conv_154: 3d00706c
input.76: 3d5397a2
onnx::Concat_156: 3d2e1ef7
input.80: 3d1a59ca
input.84: 3d6b4b00
onnx::MaxPool_159: 3ccb6141
input.88: 3ccb6141
input.144: 3d5aad3a
input.92: 3d125476
input.96: 3d0f7c4f
onnx::Concat_193: 3cfa786a
onnx::Concat_162: 3cb9f1bf
onnx::Conv_164: 3cb05164
input.100: 3d14faed
onnx::Conv_166: 3cb71a61
input.104: 3d1f9109
onnx::Concat_168: 3ce838d8
input.108: 3cd7b010
input.112: 3d0dd775
onnx::Conv_171: 3cc71187
input.116: 3cc9d842
input.120: 3cfbb300
onnx::Concat_173: 3c863ffd
onnx::MaxPool_175: 3cee9f34
onnx::Concat_176: 3cee9f34
onnx::Concat_177: 3cee9f34
onnx::Concat_178: 3cee9f34
input.124: 3d1fcdac
input.128: 3d19a157
onnx::Concat_181: 3cb3f15a
input.132: 3cb3f15a
input.136: 3d35acb5
onnx::Conv_184: 3cff0d3f
input.140: 3d4b1b54
onnx::Resize_186: 3d1d8966
onnx::Concat_191: 3d1d8966
input.148: 3d179803
input.152: 3d257698
input.156: 3d3ae2c8
onnx::Concat_196: 3d00e902
onnx::Conv_198: 3ce5d024
input.160: 3d0de4a7
onnx::Conv_200: 3cb79645
input.164: 3d4c7f1f
onnx::Concat_202: 3d096c78
input.168: 3cf60045
input.172: 3d1ec7ac
onnx::Conv_205: 3cca64d6
input.176: 3d5854c1
onnx::Resize_207: 3cffab35
onnx::Concat_212: 3cffab35
input.184: 3d10d634
input.188: 3d3a39c4
input.192: 3d2debd2
onnx::Concat_217: 3cd3d026
onnx::Conv_219: 3cfb3031
input.196: 3d1f0e99
onnx::Conv_221: 3ce2dd95
input.200: 3d5397d1
onnx::Concat_223: 3d12dac5
input.204: 3d0ec6c6
input.208: 3d6ab290
onnx::Conv_226: 3d0d3b54
input.212: 3d4942c1
input.276: 3e335dc1
onnx::Concat_228: 3cef5826
onnx::Conv_256: 3ddb06b7
input.216: 3cef5826
onnx::Reshape_261: 3e4632f5
input.220: 3d12b6b1
input.224: 3d16f325
onnx::Transpose_273: 3e4632f5
onnx::Concat_231: 3ccf235f
onnx::Conv_233: 3cbff04c
onnx::Sigmoid_274: 3e4632f5
input.228: 3d225afa
y: 3bcdf82b
onnx::Conv_235: 3ca49cc8
onnx::Mul_276: 3bdf7fd5
onnx::Mul_277: 3bf6bdef
onnx::Concat_278: 3afcaea6
input.232: 3da59452
(Unnamed Layer* 118) [Shuffle]_output: 3c810a14
onnx::Add_280: 3c5f7fd5
(Unnamed Layer* 120) [Shuffle]_output: 3c810a14
onnx::Pow_286: 3c76bdef
onnx::Concat_237: 3d347459
(Unnamed Layer* 123) [Constant]_output: 3f1e465d
onnx::Mul_282: 3f20863c
(Unnamed Layer* 125) [Shuffle]_output: 3c810a14
onnx::Mul_288: 3cec746f
input.236: 3d08ecec
(Unnamed Layer* 129) [Shuffle]_output: 3d810a14
onnx::Concat_284: 40a0863c
(Unnamed Layer* 131) [Constant]_output: 3ea14c99
onnx::Concat_290: 3f7ced90
input.240: 3d65c0a9
onnx::Reshape_291: 40a0863c
onnx::Conv_240: 3ce77144
onnx::Concat_298: 40a0863c
input.244: 3d3ab30b
input.280: 3dfae00f
onnx::Concat_242: 3cc396ff
onnx::Conv_258: 3da67983
input.248: 3cd62f29
onnx::Reshape_299: 3e4be560
input.252: 3d3ff66b
input.256: 3cf30c1c
onnx::Transpose_311: 3e4be560
onnx::Concat_245: 3cedb326
onnx::Conv_247: 3ca19af9
onnx::Sigmoid_312: 3e4be560
input.260: 3cf3dc96
y.3: 3bb09d12
onnx::Conv_249: 3c8e5a0d
onnx::Mul_314: 3bec49c4
onnx::Mul_315: 3bfb9a9e
onnx::Concat_316: 3abcbd5a
input.264: 3d6d0bd5
(Unnamed Layer* 156) [Shuffle]_output: 3c810a14
onnx::Add_318: 3c6c49c4
(Unnamed Layer* 158) [Shuffle]_output: 3c810a14
onnx::Pow_324: 3c7b9a9e
onnx::Concat_251: 3d06c85f
(Unnamed Layer* 161) [Constant]_output: 3e9b4020
onnx::Mul_320: 3ea05ace
(Unnamed Layer* 163) [Shuffle]_output: 3c810a14
onnx::Mul_326: 3cf54aaa
input.268: 3cdcefae
(Unnamed Layer* 167) [Shuffle]_output: 3e010a14
onnx::Concat_322: 40a05ace
(Unnamed Layer* 169) [Constant]_output: 3f932f7f
onnx::Concat_328: 400a3df6
input.272: 3d36d8f4
onnx::Reshape_329: 40a05ace
onnx::Conv_254: 3cc630b0
onnx::Concat_336: 40a05ace
input.284: 3d98933d
onnx::Conv_260: 3d509734
onnx::Reshape_337: 3e2acb6f
onnx::Transpose_349: 3e2acb6f
onnx::Sigmoid_350: 3e2acb6f
y.7: 3bb16339
onnx::Mul_352: 3bf7cc9b
onnx::Mul_353: 3be8ea16
onnx::Concat_354: 3a5d26ea
(Unnamed Layer* 184) [Shuffle]_output: 3c810a14
onnx::Add_356: 3c77cc9b
(Unnamed Layer* 186) [Shuffle]_output: 3c810a14
onnx::Pow_362: 3c68ea16
(Unnamed Layer* 188) [Constant]_output: 3e1533a7
onnx::Mul_358: 3e1f108c
(Unnamed Layer* 190) [Shuffle]_output: 3c810a14
onnx::Mul_364: 3cd14285
(Unnamed Layer* 193) [Shuffle]_output: 3e810a14
onnx::Concat_360: 409f108c
(Unnamed Layer* 195) [Constant]_output: 40675d12
onnx::Concat_366: 407fa56f
onnx::Reshape_367: 409f108c
onnx::Concat_374: 409f108c
output: 40a07220
(Unnamed Layer* 200) [Slice]_output: 40a07220
(Unnamed Layer* 201) [Slice]_output: 3b502b15
(Unnamed Layer* 202) [Slice]_output: 3b00556a
(Unnamed Layer* 203) [ElementWise]_output: 3a9c2c5f
boxes: 40802007
scores: 3bd46e55
